<pad>
<eos>
<bos>
<unk>
<start_of_turn>
<end_of_turn>
<start_of_image>
<end_of_image>
<start_of_audio>
<end_of_audio>
<mask>
<|reserved_special_token_0|>
<|reserved_special_token_1|>
<|reserved_special_token_2|>
<|reserved_special_token_3|>
<|reserved_special_token_4|>
[PAD]
[UNK]
[CLS]
[SEP]
[MASK]
a
b
c
d
e
f
g
h
i
j
k
l
m
n
o
p
q
r
s
t
u
v
w
x
y
z
A
B
C
D
E
F
G
H
I
J
K
L
M
N
O
P
Q
R
S
T
U
V
W
X
Y
Z
0
1
2
3
4
5
6
7
8
9
 
!
"
#
$
%
&
'
(
)
*
+
,
-
.
/
:
;
<
=
>
?
@
[
\
]
^
_
`
{
|
}
~


	

the
be
to
of
and
in
that
have
it
for
not
on
with
he
as
you
do
at
this
but
his
by
from
they
we
say
her
she
or
an
will
my
one
all
would
there
their
what
so
up
out
if
about
who
get
which
go
me
when
make
can
like
time
no
just
him
know
take
people
into
year
your
good
some
could
them
see
other
than
then
now
look
only
come
its
over
think
also
back
after
use
two
how
our
work
first
well
way
even
new
want
because
any
these
give
day
most
us
is
was
are
were
been
has
had
did
does
doing
done
being
having
getting
going
coming
looking
thinking
making
taking
saying
knowing
seeing
using
finding
giving
telling
asking
working
trying
feeling
becoming
leaving
putting
meaning
keeping
letting
beginning
seeming
helping
talking
turning
starting
showing
hearing
playing
running
moving
living
believing
holding
bringing
happening
writing
providing
sitting
standing
losing
paying
meeting
including
continuing
setting
learning
changing
leading
understanding
watching
following
stopping
creating
speaking
reading
allowing
adding
spending
growing
opening
walking
offering
remembering
loving
considering
appearing
buying
waiting
serving
dying
sending
expecting
building
staying
falling
cutting
reaching
killing
remaining
suggest
raise
pass
sell
require
report
decide
pull
return
explain
carry
develop
hope
drive
break
receive
agree
support
remove
describe
create
add
apply
avoid
prepare
compare
declare
relate
improve
maintain
recognize
introduce
wonder
realize
determine
identify
assume
indicate
respond
establish
notice
complete
obtain
represent
contain
protect
address
treat
reveal
reduce
join
seek
involve
claim
argue
prove
attend
fill
state
accept
manage
affect
exist
refer
rise
arrive
approach
enjoy
release
teach
base
express
reflect
gain
head
perform
result
replace
attempt
feed
cover
reach
tend
suffer
analyze
share
common
specific
certain
clear
large
small
long
great
little
own
last
late
early
high
low
different
same
right
old
young
important
public
private
able
national
local
social
political
available
full
free
real
true
special
recent
personal
open
human
major
possible
sure
various
difficult
similar
fiscal
individual
financial
medical
current
final
foreign
simple
future
environmental
economic
military
federal
healthy
international
legal
religious
cultural
overall
necessary
present
interesting
rich
western
involved
normal
former
successful
beautiful
concerned
professional
modern
natural
wrong
single
central
official
huge
popular
serious
basic
heavy
unique
physical
sexual
afraid
ready
positive
negative
significant
responsible
effective
civil
active
global
technical
traditional
top
original
direct
daily
southern
increased
complex
standard
impossible
potential
quick
independent
past
chemical
entire
industrial
regional
deep
university
actual
male
female
average
appropriate
additional
particular
dead
historical
useful
mental
scared
poor
commercial
catholic
northern
safe
rural
conservative
powerful
typical
united
psychological
famous
informal
internal
soft
domestic
primary
careful
urban
educational
revolutionary
critical
capable
Democratic
bright
ideal
expensive
vocational
increasing
valuable
electric
cognitive
literary
crazy
sufficient
eastern
scientific
visual
competitive
desperate
violent
editorial
comprehensive
accurate
unusual
contemporary
supreme
philosophical
logical
acceptable
liberal
nuclear
lonely
numerous
prominent
everyday
outside
massive
reasonable
sensitive
suitable
constant
nearby
satisfied
statistical
suspicious
conscious
exact
opposite
distinct
constitutional
colonial
diplomatic
promising
confident
steady
giant
substantial
monthly
profound
incredible
rare
genetic
solar
moderate
temporary
welsh
elegant
virtual
convincing
productive
compatible
minimal
dynamic
qualified
proposed
inevitable
unfair
homeless
fascinating
favorable
passive
notable
selective
architectural
innovative
academic
operational
casual
rational
exceptional
inherent
intense
chronic
fierce
precise
stable
influential
awkward
conventional
systematic
genuine
subjective
experimental
spiritual
generous
advisory
empirical
aesthetic
unexpected
objective
instant
deliberate
preliminary
anticipated
civic
imaginative
memorable
artificial
conditional
sensible
cooperative
diverse
unprecedented
desirable
satisfactory
intensive
loud
credible
competent
hostile
prospective
questionable
optimal
structural
unacceptable
controversial
distinguished
functional
uncomfortable
sophisticated
pragmatic
confidential
ambitious
absurd
alien
linear
continuous
manual
algorithm
function
variable
class
import
export
default
const
let
var
void
null
false
undefined
async
await
promise
catch
finally
throw
try
error
log
info
debug
warn
trace
assert
test
expect
module
exports
package
json
npm
install
build
run
start
stop
restart
config
env
prod
dev
staging
app
application
server
client
frontend
backend
api
endpoint
route
controller
service
repository
model
database
query
select
insert
update
delete
where
left
inner
outer
index
key
table
column
row
schema
migration
seed
auth
token
session
cookie
jwt
oauth
login
logout
register
user
admin
role
permission
group
team
organization
project
workspace
branch
commit
push
merge
conflict
rebase
cherry
pick
stash
tag
version
changelog
readme
documentation
guide
tutorial
example
demo
sample
template
boilerplate
framework
library
dependency
plugin
extension
addon
middleware
interceptor
guard
filter
pipe
resolver
subscription
mutation
type
interface
enum
union
scalar
input
output
payload
request
response
header
body
parameter
argument
option
flag
configuration
property
attribute
field
element
component
page
view
layout
partial
widget
block
section
container
grid
flex
box
stack
list
item
card
panel
modal
dialog
drawer
sidebar
navbar
toolbar
footer
banner
hero
carousel
slider
tab
accordion
collapse
expand
toggle
switch
checkbox
radio
button
textarea
label
form
validation
submit
reset
cancel
confirm
alert
notification
toast
message
badge
avatar
icon
image
picture
video
audio
file
document
pdf
text
content
data
detail
summary
description
overview
introduction
conclusion
reference
appendix
glossary
figure
chart
graph
diagram
map
link
url
path
directory
folder
name
format
size
length
width
height
depth
weight
color
style
theme
font
family
line
letter
spacing
alignment
justify
center
bottom
middle
upper
lower
capitalize
title
case
trim
split
match
search
find
sort
each
while
loop
else
continue
yield
generator
iterator
iterable
array
set
object
string
number
boolean
date
regex
pattern
exec
slice
substring
includes
starts
ends
char
code
point
concat
repeat
pad
parse
stringify
encode
decode
serialize
deserialize
clone
copy
shallow
freeze
seal
assign
keys
values
entries
descriptor
prototype
constructor
instance
method
static
protected
override
abstract
sealed
readonly
volatile
transient
synchronized
native
strict
lenient
loose
mode
babel
webpack
rollup
vite
parcel
esbuild
tsc
typescript
javascript
node
js
ts
jsx
tsx
html
css
scss
sass
less
stylus
tailwind
bootstrap
material
bulma
foundation
semantic
responsive
mobile
tablet
desktop
screen
device
touch
mouse
keyboard
pointer
click
hover
focus
visited
disabled
enabled
checked
selected
hidden
visible
opacity
transparent
translucent
blur
shadow
gradient
border
radius
margin
padding
max
min
fit
scale
rotate
translate
skew
matrix
transform
transition
animation
duration
delay
easing
timing
keyframes
iteration
count
direction
play
paused
loading
loaded
success
warning
pending
cancelled
rejected
resolved
fulfilled
settled
idle
busy
inactive
online
offline
connected
disconnected
unavailable
incomplete
empty
clean
dirty
valid
invalid
fresh
stale
expired
timeout
retry
fail
succeed
skip
ignore
allow
deny
grant
revoke
access
denied
unauthorized
forbidden
found
bad
gateway
gone
too
many
requests
unsupported
media
unprocessable
entity
upgrade
required
precondition
failed
locked
circular
overflow
underflow
bounds
range
off
divide
zero
implemented
deprecated
obsolete
beta
alpha
candidate
nightly
snapshot
integration
delivery
deployment
pipeline
stage
job
task
step
action
workflow
trigger
event
hook
webhook
callback
listener
emitter
observer
subscriber
publisher
dispatcher
handler
processor
executor
runner
worker
thread
process
fork
spawn
child
parent
main
master
slave
leader
follower
replica
shard
partition
segment
chunk
blob
stream
buffer
cache
queue
heap
tree
edge
vertex
adjacent
neighbor
breadth
traverse
visit
backtrack
recursive
memoization
programming
greedy
conquer
brute
force
heuristic
approximation
randomized
probabilistic
deterministic
nondeterministic
finite
automaton
machine
turing
lambda
calculus
imperative
declarative
oriented
procedural
structured
driven
flow
reactive
observable
coroutine
fiber
green
lightweight
runtime
engine
interpreter
compiler
jit
ahead
behind
bytecode
assembly
binary
source
syntax
lexical
parser
tokenizer
lexer
scanner
analyzer
optimizer
linker
loader
binder
namespace
include
extend
implement
overload
generic
specialization
instantiation
deduction
inference
constraint
concept
trait
mixin
composition
aggregation
association
inheritance
polymorphism
encapsulation
abstraction
coupling
cohesion
locality
temporal
spatial
sequential
random
indirect
parallel
concurrent
synchronous
asynchronous
blocking
nonblocking
lock
mutex
semaphore
condition
atomic
swap
fetch
exchange
memory
barrier
fence
ordering
consistency
acquire
relaxed
sharing
simd
vectorization
auto
parallelization
speculative
prediction
prefetch
hint
principle
thrashing
paging
segmentation
fragmentation
garbage
collection
mark
sweep
generational
incremental
world
tracing
counting
weak
strong
phantom
reachable
finalize
dispose
close
deallocate
allocate
malloc
calloc
realloc
memcpy
memset
memcmp
memmove
strcopy
strcat
strcmp
strlen
strchr
strstr
strtok
sprintf
snprintf
scanf
sscanf
printf
fprintf
vfprintf
stdio
iostream
fstream
sstream
streambuf
locale
codecvt
facet
adapter
functor
predicate
comparator
hash
equal
greater
allocator
traits
enable
integral
ratio
chrono
period
epoch
clock
system
resolution
sleep
pause
nanosleep
usleep
poll
epoll
kqueue
io_uring
aio
overlapped
completion
port
eventfd
signalfd
timerfd
socket
tcp
udp
ip
ipv4
ipv6
http
https
ftp
sftp
ssh
tls
ssl
certificate
authority
trust
chain
handshake
negotiation
protocol
layer
packet
frame
checksum
sequence
acknowledgment
window
congestion
control
routing
switching
forwarding
bridge
proxy
firewall
nat
vpn
tunnel
tunneling
overlay
underlay
fabric
mesh
topology
ring
star
bus
hierarchy
tier
leaf
spine
core
distribution
provider
consumer
producer
broker
binding
topic
offset
cursor
pagination
limit
next
previous
total
sum
median
stddev
variance
percentile
quartile
bucket
histogram
counter
gauge
meter
timer
rate
throughput
latency
bandwidth
jitter
loss
correction
detection
parity
crc
md5
sha
sha256
sha512
bcrypt
scrypt
argon
pbkdf2
hkdf
hmac
aes
rsa
ecc
curve
ed25519
x25519
secp256k1
ecdsa
ecdh
diffie
hellman
symmetric
asymmetric
secret
shared
ephemeral
persistent
derived
entropy
nonce
salt
pepper
initial
vector
iv
authentication
aead
gcm
ccm
chacha
poly
salsa
xsalsa
blake
keccak
sha3
shake
cubehash
whirlpool
ripemd
tiger
md4
hash160
base64
hex
uri
fragment
anchor
explode
space
delimited
value
pair
tuple
record
struct
variant
optional
nullable
read
write
execute
bit
mask
umask
chmod
chown
acl
capability
extended
xattr
selinux
apparmor
seccomp
cgroup
pid
mount
uts
ipc
net
isolation
sandbox
jvm
art
dalvik
verifier
dex
oat
elf
macho
pe
coff
reloc
symbol
phdr
shdr
plt
got
relocation
lazy
eager
prelinking
position
pic
pie
aslr
dep
nx
canary
fortify
hardened
exploit
vulnerability
patch
fix
rollback
downgrade
compatibility
breaking
change
semver
minor
prerelease
metadata
annotated
signed
init
bare
mirror
submodule
subtree
worktree
sparse
checkout
unstaged
tracked
untrored
ignored
attributed
diff
hunk
context
added
removed
modified
rename
similarity
ancestry
ancestor
octopus
ours
theirs
fast
forward
resolve
patience
myers
eol
crlf
lf
autocrlf
whitespace
indent
trailing
blank
end
conflicts
markers
custom
driver
smudge
lfs
storage
locking
multiple
exclusive
optimistic
pessimistic
transaction
level
committed
repeatable
serializable
mvcc
multi
concurrency
deadlock
livelock
starvation
priority
inversion
resource
contention
bottleneck
hot
spot
hiding
execution
order
superscalar
pipelining
prefetching
l1
l2
l3
tlb
mmu
walk
shootdown
invalidation
coherence
snooping
based
numa
affinity
pin
scheduling
fairness
round
robin
lottery
stride
proportional
deadline
earliest
due
least
laxity
monotonic
sporadic
aperiodic
periodic
worst
wcet
schedulability
utilization
bound
admission
degradation
graceful
circuit
breaker
bulkhead
backoff
exponential
randomization
throttling
limiting
quota
budget
cap
ceiling
floor
threshold
rule
policy
invariant
assertion
postcondition
Hoare
triple
weakest
strongest
interpretation
symbolic
concolic
fuzzing
testing
formal
verification
checking
theorem
proof
assistant
Coq
Isabelle
HOL
Agda
Lean
Twelf
Ott
Menhir
yacc
bison
antlr
peg
lalr
lr
descent
Pratt
down
operator
precedence
shunting
yard
Earley
CYK
GLR
GLL
ALL(*)
adaptive
PEG
packrat
memoizing
combinator
parsec
attoparsec
nom
pest
lalrpop
grammar
production
terminal
nonterminal
epsilon
follow
predict
lookahead
canonical
slr
lr1
lalr1
shift
associativity
nonassoc
unary
postfix
prefix
infix
mixfix
overloading
ad
hoc
parametric
inclusion
subtype
bounded
existentials
higher
rank
kind
associated
newtype
wrapper
synonym
representational
nominal
typeable
dynamics
deriving
reflection
quasiquote
macro
hygiene
transformation
DSL
embedded
external
tagless
algebra
coalgebra
catamorphism
anamorphism
hylomorphism
metamorphism
paramorphism
apomorphism
zygomorphism
histomorphism
futumorphism
chronomorphism
dynamorphism
bird
meertens
program
derivation
equational
reasoning
refinement
liquid
dependent
indexed
GADT
promotion
levity
representation
unboxed
boxed
lifted
unlifted
rep
roles
magic
primitive
bytestring
builder
formatter
prettyprint
show
display
inspect
telemetry
metric
span
baggage
propagation
carrier
inject
extract
B3
Jaeger
Zipkin
OpenTelemetry
OTel
Prometheus
Grafana
Datadog
NewRelic
Splunk
ELK
Elastic
Logstash
Kibana
Fluentd
Vector
OpenSearch
InfluxDB
TimescaleDB
ClickHouse
DuckDB
SQLite
PostgreSQL
MySQL
MariaDB
Oracle
SQLServer
DB2
MongoDB
Redis
DynamoDB
Cassandra
ScyllaDB
CockroachDB
Yugabyte
TiDB
Spanner
BigQuery
Snowflake
Redshift
Athena
Presto
Trino
Drill
Impala
Hive
Spark
Flink
Kafka
Pulsar
NATS
RabbitMQ
ZeroMQ
gRPC
GraphQL
REST
SOAP
XML
JSON
YAML
TOML
INI
CSV
TSV
Parquet
Avro
ORC
Protobuf
MessagePack
BSON
CBOR
FlatBuffers
Cap'n
Proto
Thrift
Schema
Registry
Confluent
Connect
Debezium
Change
Data
Capture
CDC
sourcing
CQRS
saga
choreography
orchestration
distributed
phase
three
consensus
paxos
raft
zab
viewstamped
replication
backup
replicated
CRDT
convergent
commutative
operation
delta
Yjs
Automerge
DiamondTypes
ProseMirror
OT
retention
selection
collaborative
editing
sync
broadcast
presence
awareness
tracking
undo
redo
history
git
mercurial
svn
perforce
bazaar
darcs
monotone
fossil
cvs
rcs
sccs
bitkeeper
clearcase
VSS
TFS
Azure
DevOps
GitHub
GitLab
Bitbucket
Gitea
Gogs
SourceForge
Codeberg
Phabricator
Jenkins
CircleCI
Travis
Actions
CI
Buildkite
TeamCity
Bamboo
Drone
Concourse
Argo
Tekton
Spinnaker
Harness
Flux
ArgoCD
GitOps
Helm
Kustomize
OPA
Gatekeeper
Kyverno
Falco
Trivy
Snyk
SonarQube
CodeQL
Semgrep
ESLint
Prettier
Black
Ruff
Mypy
Pyright
TypeScript
Flow
Rust
Clippy
Go
Vet
Golint
PHPStan
Psalm
PHP_CodeSniffer
PHPMD
PHPCS
PHP-CS-Fixer
RuboCop
Brakeman
Reek
Flog
Flay
SimpleCov
Istanbul
JaCoCo
Cobertura
lcov
gcov
llvm
cov
kcov
OpenCppCoverage
Codecov
Coveralls
SonarCloud
DeepSource
Sentry
Rollbar
Bugsnag
Airbrake
Raygun
Honeybadger
LogRocket
FullStory
RUM
APM
OneSignal
Pusher
PubNub
Ably
Firebase
Supabase
Hasura
Appwrite
PocketBase
Parse
Back4App
Kinvey
AWS
Amplify
Lambda
Lambda@Edge
Cloudflare
Workers
Vercel
Functions
Netlify
GCP
Cloud
App
Runner
ECS
Fargate
EKS
Kubernetes
Docker
containerd
Podman
Buildah
Skopeo
Kaniko
Ko
Jib
Buildpacks
Heroku
Dokku
Flynn
Convox
CapRover
Coolify
Easypanel
Dokploy
Railway
Render
Fly.io
Koyeb
Northflank
Qovery
Okteto
DevSpace
Skaffold
Tilt
Garden
Draft
Devfile
Devcontainer
Codespaces
Gitpod
LocalStack
Moto
testcontainers
WireMock
MockServer
Hoverfly
Pact
Mountebank
Stubby
##a
##b
##c
##d
##e
##f
##g
##h
##i
##j
##k
##l
##m
##n
##o
##p
##q
##r
##s
##t
##u
##v
##w
##x
##y
##z
##ed
##ing
##ly
##er
##tion
##est
##ness
##ment
##able
##ible
##ful
##less
##ive
##ous
##ic
##al
##ial
##ical
##ity
##ty
##ance
##ence
##ancy
##ency
##dom
##hood
##ship
##ism
##ist
##ize
##ise
##ify
##fy
##en
##ate
##ite
##ute
##ect
##ict
##uct
##apt
##ept
##ipt
##opt
##pt
##ct
##xt
##st
##ft
##lt
##nt
##rt
##ss
##ll
##tt
##ff
##rr
##nn
##pp
##bb
##dd
##gg
##mm
##zz
##cc
##kk
##vv
##ww
##xx
##yy
##jj
##qq
##hh
//
/*
*/
///
<!--
-->
<!DOCTYPE
<html
</html>
<head>
</head>
<body>
</body>
<div
</div>
<span
</span>
<p>
</p>
<a 
</a>
<img
<br
<hr
<table
</table>
<tr>
</tr>
<td>
</td>
<th>
</th>
<ul>
</ul>
<ol>
</ol>
<li>
</li>
<h1>
</h1>
<h2>
</h2>
<h3>
</h3>
<script>
</script>
<style>
</style>
<meta
<link
<title>
</title>
<form
</form>
<input
<button
</button>
<textarea
</textarea>
<select
</select>
<option
</option>
<label
</label>
function(
return 
const 
let 
var 
if(
else{
while(
for(
switch(
case 
break;
continue;
try{
catch(
finally{
throw 
new 
this.
super.
class 
extends 
import 
export 
from 
default 
as 
async 
await 
=>
===
!==
==
!=
&&
||
++
--
+=
-=
*=
/=
%=
&=
|=
^=
<<=
>>=
public 
private 
protected 
static 
final 
abstract 
interface 
implements 
package 
void 
int 
long 
float 
double 
boolean 
char 
byte 
short 
String 
Object 
List<
Map<
Set<
Array<
Optional<
Promise<
Observable<
Flow<
LiveData<
StateFlow<
MutableStateFlow<
suspend 
fun 
val 
lateinit 
by 
lazy 
init 
companion 
object 
sealed 
data 
inline 
crossinline 
noinline 
reified 
expect 
actual 
external 
annotation 
@JvmName
@JvmStatic
@JvmOverloads
@Throws
@Deprecated
@Suppress
@OptIn
@Experimental
@PublishedApi
override 
open 
inner 
enum 
typealias 
@Composable
@Preview
@HiltAndroidApp
@AndroidEntryPoint
@ViewModelScoped
@Singleton
@Inject
@Provides
@Binds
@Module
@InstallIn
@Named
@Qualifier
@Scope
@Retention
@Target
@MustBeDocumented
@Repeatable
android.
androidx.
kotlin.
kotlinx.
java.
javax.
com.
org.
net.
io.
okhttp3.
retrofit2.
dagger.
hilt.
room.
paging.
navigation.
work.
lifecycle.
viewmodel.
livedata.
databinding.
compose.
ui.
material.
material3.
foundation.
runtime.
compiler.
coroutines.
serialization.
datetime.
atomicfu.
benchmark.
test.
junit.
espresso.
robolectric.
mockito.
mockk.
assertj.
truth.
build.
gradle.
settings.
plugin.
task.
configuration.
dependency.
implementation 
api 
compileOnly 
runtimeOnly 
testImplementation 
androidTestImplementation 
kapt 
ksp 
annotationProcessor 
lintChecks 
debugImplementation 
releaseImplementation 
compileSdk
minSdk
targetSdk
versionCode
versionName
applicationId
proguardFiles
buildTypes
signingConfigs
productFlavors
dimensions
sourceSets
dependencies
plugins
repositories
mavenCentral
google
jitpack
maven
flatDir
resolutionStrategy
exclude
transitive
implementation
compileOnly
runtimeOnly
androidTest
benchmark
lint
kapt
ksp
annotationProcessor
lintChecks
debugImplementation
releaseImplementation
compose
kotlin
java
android
feature
dynamic-feature
artifact
classifier
scope
substitute
strictly
prefer
reject
cacheChangingModulesFor
cacheDynamicVersionsFor
en
##tal
##ntal
envi
##ental
envir
##y 
co
##ly 
com
##nly 
comp
##Only 
compi
##e{
el
##se{
els
##lse{
##tp
sf
##ftp
sft
##ng
lo
loc
##king
##cking
locki
##ec
ex
##xec
exe
ru
##ner
##nner
runn
##unner
runne
##g.
pa
##ng.
pag
##ing.
pagi
##ging.
pagin
##rs
th
##irs
##eirs
thei
##heirs
fu
##led
ful
##lled
fulf
##illed
fulfi
##om
ph
##tom
pha
##ntom
phan
##antom
phant
##te
qu
##ote
qua
##uote
quas
##quote
quasi
##l>
</
##el>
</l
##bel>
</la
##abel>
</lab
cr
cre
##ting
crea
##ating
creat
##in
ma
##gin
mar
##rgin
marg
##argin
margi
##co
Fa
##lco
Fal
##alco
Falc
ba
##sed
bas
##ased
##et
fa
##cet
fac
##acet
face
ha
hav
##ving
havi
##aving
havin
##dy
gr
##edy
gre
##eedy
gree
##reedy
greed
##ow
sh
##low
##llow
shal
##allow
shall
##ue
##nue
con
##inue
cont
##tinue
conti
##on
##ion
inv
##sion
inve
##rsion
inver
Sp
Spa
Span
##anner
Spann
##nal
##onal
conv
##ional
conve
ca
##date
cand
##idate
candi
##le
un
##ble
una
unav
##lable
unava
##e(
wh
##le(
whi
##ile(
whil
##hile(
##t.
ne
##et.
ve
vec
vect
##ation
vecto
ta
tal
talk
##lking
talki
wo
wor
##flow
##kflow
workf
##od
Gi
##pod
Git
##tpod
Gitp
##itpod
Gitpo
##DB
Mo
##oDB
Mon
##goDB
Mong
##ngoDB
Mongo
##|>
<|
##3|>
<|r
##_3|>
<|re
##n_3|>
<|res
re
reg
regi
regio
##it
ci
##uit
cir
##cuit
circ
##rcuit
circu
##vm
ll
##lvm
llv
##ot
sn
##hot
sna
##shot
snap
##pshot
snaps
vi
##ted
vis
##ited
visi
##sited
##sm
hi
##hism
hist
##phism
histo
##ale
##cale
loca
##ocale
ena
enab
##nable
enabl
##set
##fset
offs
##ffset
offse
st
##tly
str
##ctly
stri
##ictly
stric
##ul
Is
##bul
Ist
##nbul
Ista
##anbul
Istan
##ned
und
##ined
unde
##fined
undef
##
###nt
##3>
##h3>
</h
##/h3>
</h3
fi
fin
##inal
fina
##ong
##rong
stro
##trong
stron
##ge
##age
mes
##sage
mess
##ssage
messa
noti
notif
##i>
<l
##li>
<li
bi
##per
##eper
bitk
##eeper
bitke
par
##tial
part
##rtial
parti
##el
##cel
##ncel
canc
##ancel
cance
orc
orch
orche
##ntion
conte
##ns
Fu
##ons
Fun
##ions
Func
##tions
Funct
##fe
sa
##afe
saf
##nd
##ond
res
##pond
resp
##spond
respo
##nk
Fl
##ink
Fli
##link
Flin
la
lat
cred
##dible
credi
de
del
deli
##mited
delim
##2>
##h2>
##/h2>
</h2
##g 
St
##ng 
Str
##ing 
Stri
##ring 
Strin
##n>
<s
##rn>
<st
##urn>
<sta
##turn>
<star
le
##ess
les
di
dir
##rect
dire
##irect
direc
pr
pre
prec
##ition
preco
##re
##ire
req
##uire
requ
##quire
requi
po
##cal
pol
poli
##tical
polit
##us
##ious
prev
##vious
previ
Bu
Bui
##kite
Buil
##dkite
Build
##don
##ddon
addo
Ti
##eDB
Tim
##leDB
Time
##aleDB
Times
ac
acq
acqu
acqui
###ute
##ut
##ule
rul
##ry
##ery
##very
##ivery
deliv
su
sui
suit
##table
suita
##ory
mem
##mory
memo
##emory
memor
##ce
##ace
int
##face
inte
##rface
inter
##or
##tor
##ctor
##ector
##ck
li
##ock
liv
##lock
live
##elock
livel
ass
asse
##rtion
asser
ab
##act
abs
##ract
abst
##tract
abstr
ge
##ric
gen
##eric
gene
##neric
gener
###rt
##ied
##fied
qual
##ified
quali
##py
##opy
##copy
strc
##rcopy
strco
##tf
sp
##ntf
spr
##intf
spri
##rintf
sprin
##ass
sas
##Id
ap
##nId
##onId
appl
##ionId
appli
dis
##uted
dist
##buted
distr
bl
blo
bloc
##es
##oes
doe
hea
##ring
hear
##aring
heari
##cute
##ecute
execu
##ld
##eld
fie
##ield
fiel
##sk
##ask
tas
ent
##ropy
entr
##tropy
entro
los
##sing
losi
##osing
losin
ext
extr
extra
##AP
SO
##OAP
SOA
##ta
##ata
met
##data
meta
##adata
metad
##x.
ko
##nx.
kot
##inx.
kotl
##linx.
kotli
##ary
nec
##sary
nece
##ssary
neces
##n.
na
##on.
nav
##ion.
navi
##tion.
navig
##at
##hat
tha
dr
##ver
dri
##iver
driv
##river
sc
sca
scal
br
##ker
bro
##oker
brok
##roker
broke
ep
##oll
epo
##poll
epol
sta
##rting
##ir
fl
##Dir
fla
##tDir
flat
##atDir
flatD
##ack
bac
te
##st.
tes
##est.
##ra
al
##bra
alg
##ebra
alge
##gebra
algeb
##th
##pth
##epth
dept
Op
##try
Ope
##etry
Open
##metry
OpenT
##tate
stat
ig
##ore
ign
##nore
igno
##gnore
ignor
##c 
##nc 
asy
##ync 
asyn
##sync 
##ual
cas
##sual
casu
##asual
casua
##e>
##le>
##yle>
<sty
##tyle>
<styl
##ies
##cies
depe
##ncies
depen
pu
put
putt
##tting
putti
##ad
ov
##oad
ove
##load
##rload
overl
##ex
##lex
fle
vo
voc
voca
vocat
ea
##rly
ear
##arly
earl
##ap
##eap
##se
cl
##ase
cle
##case
clea
##rcase
##rd
##ard
car
upp
##pper
uppe
##ve
ada
##tive
adap
##ptive
adapt
##hr
##chr
##rchr
##trchr
strch
##ove
rem
##move
remo
##emove
remov
##nce
pat
pati
##ience
patie
Ho
##ger
Hon
##dger
Hone
##adger
Honey
</t
##ble>
</ta
##able>
</tab
ani
anim
anima
##ent
adj
##cent
adja
##acent
adjac
##ird
bir
##w<
Mu
##ow<
Mut
##low<
Muta
##Flow<
Mutab
@Q
##ier
@Qu
##fier
@Qua
##ifier
@Qual
##19
ed
##519
ed2
##5519
ed25
##25519
ed255
##ast
toa
##oast
toas
##ke
##ake
##hake
shak
##ler
##ller
##oller
contr
##QL
Gr
##hQL
Gra
##phQL
Grap
##aphQL
Graph
op
ope
oper
opera
mo
##use
mou
##ouse
mous
###kk
##an
##man
hel
##lman
hell
##llman
hellm
##zy 
laz
##azy 
tec
tech
##nical
techn
##lf
au
##rlf
aut
##crlf
##ocrlf
autoc
##bel
bab
##abel
babe
ht
##ttp
htt
Po
Pod
##dman
Podm
##odman
Podma
##ze
des
##lize
dese
##alize
deser
##der
ord
##rder
orde
##2.
##t2.
ret
##it2.
retr
##fit2.
retro
##ar
##lar
pop
##ular
popu
##pular
popul
##rld
##orld
worl
##r.
da
##er.
dag
##ger.
dagg
##gger.
dagge
##ind
tai
##wind
tail
##lwind
tailw
##ile
per
##tile
perc
##ntile
perce
On
One
##gnal
OneS
##ignal
OneSi
@M
@Mo
##dule
@Mod
##odule
@Modu
Ty
Typ
##ript
Type
##cript
TypeS
se
sec
sect
##ction
secti
ju
##it.
jun
##nit.
juni
##unit.
junit
mu
##ple
mul
##iple
mult
##tiple
deg
degr
degra
##s 
##ss 
cla
##ass 
clas
##lass 
##int
lin
wc
wce
##id
##rid
gri
##sor
pro
##ssor
proc
##essor
proce
###uct
##uc
va
##lue
val
##alue
valu
##nse
##ense
##tense
inten
##ds
@J
##ads
@Jv
##oads
@Jvm
##loads
@JvmO
##tle
lit
##ttle
litt
##ittle
littl
##ped
vie
##mped
##amped
views
##ral
##gral
##egral
integ
tr
tra
##ling
trai
##iling
trail
##les
##iles
prog
##Files
progu
##y<
Ar
##ay<
Arr
##ray<
Arra
##rray<
Array
exi
##xist
exis
reme
##ering
remem
sub
subs
##tring
subst
suc
##cess
succ
##ccess
succe
##in.
##lin.
##tlin.
lev
##vity
levi
##evity
levit
##n 
##on 
##ion 
##nion 
compa
##oke
rev
##voke
revo
##evoke
revok
sol
##olar
sola
##pe
@S
##ope
@Sc
##cope
@Sco
##Scope
@Scop
fav
favo
##rable
favor
##ort
sor
##eat
##peat
repe
##epeat
repea
ag
agg
aggr
aggre
###ww
conf
confi
##rint
pret
##print
prett
##red
##ored
##nored
inc
##ding
incl
##uding
inclu
Cl
##ppy
Cli
##ippy
Clip
##lippy
Clipp
won
##nder
wond
##onder
wonde
opt
opti
optio
##ant
gra
##rant
gran
##cept
conc
##ncept
conce
col
coll
colle
##ull
##ea
##rea
tex
##area
##tarea
texta
##ch
##tch
cat
##atch
catc
##ider
prov
##vider
provi
##ated
asso
##iated
assoc
##rue
tru
##nary
##onary
revol
wr
wra
wrap
##apper
wrapp
##rack
##track
backt
sett
setti
unl
##fted
unli
##ifted
unlif
gu
gua
##uard
guar
ra
rai
##aise
rais
han
hand
##shake
hands
##cted
disc
##ected
disco
##a>
##/a>
</a
##ank
bla
##lank
blan
sel
sele
selec
##und
##ound
prof
##found
profo
##ution
fo
##tify
fort
##rtify
forti
##lity
##ality
sy
sym
##tric
symm
##etric
symme
af
aff
##nity
affi
##inity
affin
##s>
<e
##os>
<eo
##eos>
<eos
##to
Ok
##eto
Okt
##teto
Okte
##kteto
Oktet
##mon
##mmon
comm
##ommon
commo
Ku
##tes
Kub
##etes
Kube
##netes
Kuber
produ
cons
##uctor
##rm
##orm
##form
tran
##sform
trans
##ter
foo
##oter
foot
##ooter
foote
gett
getti
rete
reten
##rk
##ork
runt
runti
##iding
ec
##mic
eco
##omic
econ
##nomic
econo
##are
##hare
shar
Ch
##nge
Cha
##ange
Chan
##hange
Chang
##ose
loo
##oose
loos
ref
refe
##rence
##dic
ape
##odic
aper
##iodic
aperi
im
imp
impe
##ative
imper
es
##ild
esb
##uild
esbu
##build
esbui
rat
rati
##ig
##fig
##nfig
##onfig
##hase
phas
lea
lead
##ading
leadi
pri
##mary
prim
##imary
prima
ar
##gon
arg
##rgon
argo
rel
rele
relea
##h.
##th.
##uth.
trut
##ruth.
truth
##tic
##stic
##istic
optim
##wer
dra
##awer
draw
##rawer
drawe
vu
vul
vuln
##ility
vulne
##gic
mag
##agic
magi
pers
##sonal
perso
prel
##inary
preli
sm
##dge
smu
##udge
smud
##mudge
smudg
Pr
##att
Pra
##ratt
Prat
##pot
spo
##ete
##lete
##plete
compl
##iv
<d
##div
<di
##t 
##it 
##nit 
##init 
latei
##wn
##own
sho
##down
shoo
##tdown
shoot
##a3
##ha3
##iff
dif
###ical
##ica
##pare
##mpare
##ht
##ght
bri
##ight
brig
##right
brigh
##eal
sea
##and
exp
##pand
expa
##xpand
expan
##12
##512
##a512
sha5
##ha512
sha51
##ying
tryi
##rying
tryin
##ser
##rser
pars
##arser
ch
chr
chro
chron
##d.
bu
##ld.
bui
##ild.
buil
##uild.
stab
stabl
##ked
##cked
##ocked
locke
ver
veri
verif
##rry
che
##erry
cher
##herry
cherr
##ug
##bug
deb
##ebug
debu
incr
##eased
incre
sw
swi
##itch
swit
##witch
switc
##ak
##eak
bre
##reak
brea
##ol
##col
##ocol
prot
##tocol
proto
##up
##kup
##ckup
##ackup
backu
pres
##sence
prese
edg
aw
awa
##ait 
awai
##wait 
spe
spec
speci
<u
##ul>
<ul
pos
post
postc
##ls
Co
##lls
Cov
##alls
Cove
##ralls
Cover
##ST
RE
##EST
RES
##so
##lso
als
##ox
##box
san
##dbox
sand
##ndbox
sandb
##ee
##ree
##tree
##ktree
workt
##ere
whe
##here
wher
SQ
SQL
##Lite
SQLi
##QLite
SQLit
##e 
##ne 
noi
##ine 
noin
##line 
noinl
##ich
##hich
whic
##4|>
##_4|>
##n_4|>
oc
##pus
oct
##opus
octo
##topus
octop
lig
ligh
##eight
light
##3.
##l3.
mat
##al3.
mate
##ial3.
mater
##sible
visib
##ike
lik
sup
##port
supp
##pport
suppo
##io
##dio
std
##tdio
stdi
##dict
pred
##edict
predi
Su
Sup
##base
Supa
##abase
Supab
##ius
rad
##dius
radi
##adius
radiu
##tage
stag
##ader
##eader
leade
##aled
##ealed
seale
##an>
</s
##pan>
</sp
##span>
</spa
dat
##y>
##dy>
</b
##ody>
</bo
##body>
</bod
cond
condi
##sh
##ish
est
##lish
esta
##blish
estab
##de
##ode
enc
##code
enco
##ncode
encod
fun
func
funct
##rn
##urn
##turn
retu
##eturn
retur
ae
##etic
aest
##hetic
aesth
depr
##cated
depre
##zer
tok
##izer
toke
##nizer
##te 
##ate 
priv
##vate 
priva
soc
##cial
soci
##ocial
socia
Ob
##ct 
Obj
##ect 
Obje
##ject 
Objec
###pt
##en 
##pen 
##d>
<h
##ad>
<he
##ead>
<hea
##head>
<head
##get
bud
##dget
budg
##udget
budge
@Mu
##nted
@Mus
##ented
@Must
##eter
##reter
##ay
Ra
##way
Rai
##lway
Rail
##ilway
Railw
vio
##lent
viol
##olent
viole
##*)
AL
##(*)
ALL
##L(*)
ALL(
##LL(*)
ALL(*
Yu
##yte
Yug
##byte
Yuga
##abyte
Yugab
ack
ackn
##gment
ackno
##pes
##ypes
##Types
ran
##ared
##hared
##uth
Ma
##aDB
Mar
##iaDB
Mari
##riaDB
Maria
pl
plu
##gin.
plug
##ugin.
plugi
##hod
##thod
meth
##ethod
metho
pas
##sive
##ssive
passi
Tw
##elf
Twe
##welf
Twel
ke
kee
##ping
keep
##eping
keepi
##fd
ti
##rfd
tim
##erfd
##merfd
##asing
##tr
xa
##ttr
xat
##attr
xatt
para
##meter
param
##oard
keyb
##board
keybo
dec
decl
decla
##unk
Spl
##lunk
Splu
##plunk
Splun
rand
rando
cha
chan
chang
##cs
##rcs
dar
##arcs
darc
##ps
De
##Ops
Dev
##vOps
DevO
##evOps
DevOp
##ko
Ka
##iko
Kan
##niko
Kani
##aniko
Kanik
##pen
acc
##rate
accu
##urate
accur
##ma
Sc
##ema
Sch
##hema
Sche
##chema
Schem
dim
dime
##sions
dimen
###fy
##nsive
##op
##top
sto
##uer
##quer
conq
##nquer
conqu
##a.
ja
##va.
jav
##ava.
##ply
##pply
##mal
##imal
##timal
ele
elem
##ement
eleme
wea
coh
cohe
coher
##vy
##avy
##eavy
heav
em
emi
##tter
emit
##itter
emitt
tri
##gger
trig
##igger
trigg
bo
##xed
##oxed
boxe
jo
##oin
joi
cog
cogn
##itive
cogni
##tory
repo
##itory
repos
##nds
mas
##ster
mast
##aster
maste
ot
##her
oth
##ther
othe
specu
@N
##med
@Na
##amed
@Nam
##Named
@Name
rea
reali
compe
##cular
deco
##ecode
decod
##lt 
def
##ult 
defa
##ault 
defau
eas
easi
easin
##ok
##tok
##rtok
strt
##trtok
strto
##pse
##apse
##lapse
colla
###ct
##erate
delib
###rr
##ries
##ories
##SQL
Pos
##eSQL
Post
##reSQL
Postg
<o
<op
<opt
##ption
<opti
###apt
##cing
trac
##acing
traci
exa
##mple
exam
##ample
examp
##put
inp
##nput
inpu
##sy
##usy
##dow
##adow
shad
##hadow
shado
neg
nego
negot
##oop
fab
##bric
fabr
##abric
fabri
##cy
##ncy
###ency
##enc
##ket
buc
##cket
buck
##ucket
bucke
exc
exce
excep
##on>
##ton>
</bu
##tton>
</but
unar
##len
##rlen
strl
##trlen
strle
##pty
emp
##mpty
empt
##ip
sk
##kip
ski
lis
vari
##iable
varia
##ator
##rator
ina
inac
##ctive
inact
cou
coup
##pling
coupl
##pect
expe
##xpect
expec
##oto
Mot
##ub
Pu
##Nub
Pub
##bNub
PubN
##ubNub
PubNu
ind
##dent
inde
##ndent
inden
##by
##rby
nea
##arby
near
##earby
nearb
Ap
##rite
Appw
##write
Appwr
##ep
##eep
nan
##leep
nano
##sleep
nanos
##me
##ame
nam
##r 
##or 
ann
##sor 
anno
##ssor 
annot
##ens
mee
##tens
meer
##rtens
meert
##tion 
testI
comb
##nator
combi
##ne
###ness
##nes
id
ide
iden
##ntify
ident
##dk
mi
##Sdk
##nSdk
minS
##inSdk
minSd
att
attr
attri
##lop
##elop
deve
##velop
devel
fr
##esh
fre
##resh
fres
##tle>
</ti
##itle>
</tit
##f2
pb
##df2
pbk
##kdf2
pbkd
##bkdf2
pbkdf
capa
##pable
capab
##ts 
##nts 
impl
##ents 
imple
##ult
##sult
resu
##esult
resul
##ctory
##eb
##yeb
Koy
##oyeb
Koye
##zy
##azy
##ype
##type
subt
##btype
subty
byt
##yte 
byte
##eed
##PE
<!
##YPE
<!D
##TYPE
<!DO
##CTYPE
<!DOC
##rical
sug
##gest
sugg
##ggest
sugge
mod
moder
reac
##hable
exch
excha
##ide
##ride
##rride
overr
###hh
##ick
qui
##uick
quic
##md
si
##imd
sim
##tex
##rtex
vert
##ertex
verte
cor
##ese
##hese
thes
##lor
##olor
colo
##MQ
Ze
##oMQ
Zer
##roMQ
Zero
##eroMQ
ZeroM
man
##nage
mana
##anage
manag
##ean
boo
##lean
bool
##olean
boole
ini
##itial
initi
##cast
broa
##dcast
broad
##em
##tem
sys
##stem
syst
##ystem
syste
##ror
mir
##rror
mirr
##irror
mirro
##lse
fal
##alse
fals
bytec
ro
rou
roun
##.io
Fly
##y.io
Fly.
##ly.io
Fly.i
##gle
goo
##ogle
goog
##oogle
googl
##il
##vil
civ
##ivil
civi
##rity
prio
##ority
prior
###ly
##ired
##uired
##exed
##dexed
##del
##odel
uni
##nion
unio
##vt
##cvt
cod
##ecvt
##decvt
codec
##Name
##mName
@JvmN
crl
###ous
##ou
ok
##p3.
okh
##tp3.
okht
##ttp3.
okhtt
##rge
lar
##arge
larg
##nter
coun
##unter
##sent
repr
##esent
repre
##lta
##elta
delt
La
Lam
##Edge
Lamb
##@Edge
Lambd
###gg
##lic
##olic
cath
##holic
catho
##rary
##orary
##ease
##lease
##race
##bled
disa
##abled
disab
ob
obj
obje
objec
###ty
##cak
kec
##ccak
kecc
##eccak
kecca
##lding
##mizer
##ural
natu
##tural
natur
ser
seri
##rious
serio
##sial
##rsial
##als
##ials
##tials
lex
lexi
##xical
lexic
##eir
##heir
##ody
bod
##hing
pref
##ching
prefe
ga
##uge
gau
##auge
gaug
##ge 
pac
##age 
pack
##kage 
packa
Se
##rep
Sem
##grep
Semg
##mgrep
Semgr
Pa
##rse
Par
##arse
Pars
##ptor
##eptor
bel
beli
##eving
belie
@V
@Vi
##oped
@Vie
##coped
@View
##uce
##duce
intr
##oduce
intro
##ject
##bject
##ern
wes
##tern
west
##stern
weste
fe
fet
##etch
fetc
authe
inf
infl
##ntial
influ
##aid
afr
##raid
afra
##fraid
afrai
##For
cac
##sFor
cach
##nsFor
##dency
prop
propo
ana
##yzer
anal
##lyzer
analy
##e.
##le.
##dle.
grad
##adle.
gradl
##yze
##lyze
##alyze
##yk
Sn
##nyk
Sny
##ume
##sume
assu
##ssume
assum
##lr
##slr
asl
##r>
##tr>
##/tr>
</tr
profe
##oup
gro
##roup
grou
##lel
##llel
##allel
paral
So
Sou
##orge
Sour
##Forge
Sourc
##rage
##erage
OpenC
<f
<fo
<for
ins
inst
insta
##ont
fon
fil
##lter
filt
##ilter
filte
chi
##hild
chil
##hip
###ship
##shi
##rce
sou
##urce
sour
##ource
sourc
##one
don
Ai
Air
##rake
Airb
##brake
Airbr
doi
##oing
doin
rec
##nize
reco
##gnize
recog
##lay
pla
bin
bind
##inder
binde
Pac
cu
##rve
cur
##urve
curv
##pping
stopp
##rlay
##erlay
under
adv
##sory
advi
##isory
advis
##fer
suf
##ffer
suff
##uffer
suffe
##lus
sty
##ylus
styl
##tylus
stylu
##os
##xos
pax
##axos
paxo
cli
##lick
clic
##lk
wa
##alk
wal
Re
Ren
Rend
##ender
Rende
##mer
##umer
##sumer
consu
bar
##rier
barr
##rrier
barri
cus
##stom
cust
##ustom
custo
ask
aski
##sking
askin
non
##once
nonc
##ice
##tice
##otice
notic
##nctor
##me.
##ime.
##time.
datet
stor
##orage
stora
div
##erse
dive
##verse
diver
##late
##slate
##zing
##izing
memoi
##et 
rece
##ecent
recen
zy
zyg
zygo
zygom
det
dete
deter
enca
encap
##rove
livi
##iving
livin
vers
##nName
versi
av
ava
avai
avail
ses
sess
##ssion
sessi
##be
##ube
Son
##Qube
Sona
##rQube
Sonar
##sto
Pre
##esto
Pres
##resto
Prest
##ces
Cod
##aces
Code
##paces
Codes
##pose
disp
##spose
dispo
##e<
##le<
Obs
##ble<
Obse
##able<
Obser
##tted
##itted
commi
mal
gar
##bage
garb
##rbage
garba
mut
muta
mutat
##ts
##cts
##icts
##licts
confl
thr
thra
##shing
thras
ite
iter
itera
siz
##wap
swa
##ath
##tant
assi
##stant
assis
prote
##rol
##trol
##ntrol
Dr
Dro
##rone
Dron
##am
fs
##eam
fst
##ream
fstr
##tream
fstre
##ert
ale
##lert
aler
##aker
##eaker
##aft
Dra
##raft
Draf
compr
mob
##bile
mobi
##obile
mobil
lif
##cle.
life
##ycle.
lifec
##rent
##rrent
concu
@Su
##ress
@Sup
##press
@Supp
##vice
serv
##rvice
servi
##all
sma
##mall
smal
inva
inval
##ved
##lved
invo
##olved
invol
##mpose
compo
##cpy
##mcpy
memc
##emcpy
memcp
##over
cove
##ew
##iew
##view
##rview
overv
##lid
##alid
##valid
x2
x25
x255
x2551
##lode
expl
##plode
explo
##ily
fam
##mily
fami
##amily
famil
##unt
##ount
moun
##k.
##sk.
##ask.
##i 
##pi 
##irm
##firm
##nfirm
##ming
comi
##oming
comin
ter
term
##minal
termi
##pped
##apped
Coo
##lify
Cool
##olify
Cooli
##d 
##id 
voi
##oid 
detec
har
##ened
hard
##dened
harde
##art
##tart
##reat
grea
ban
bann
banne
der
##ived
deri
##rived
deriv
##iate
appr
##riate
appro
sex
##xual
sexu
##exual
sexua
##0|>
##_0|>
##n_0|>
hy
##ene
hyg
##iene
hygi
##giene
hygie
##sec
##rsec
##arsec
##hem
##ugin
##lugin
Or
##cle
Ora
##acle
Orac
##racle
Oracl
##nent
##onent
bou
##unds
boun
##ounds
##iDB
TiD
gi
giv
givi
givin
##Test
andr
##dTest
andro
mid
##ware
midd
##eware
middl
##ave
##dr
##hdr
shd
##son
jso
hid
hidi
hidin
##ood
mea
##ning
mean
##aning
meani
##wing
##owing
showi
ty
typ
lib
##eral
libe
##beral
liber
##een
scr
##reen
scre
##creen
scree
##ov
kc
##cov
kco
##sic
##asic
basi
##CI
Ci
##eCI
Cir
##leCI
Circ
##cleCI
Circl
typi
##pical
typic
El
Ela
Elas
##astic
Elast
##dence
prece
##eue
que
##ueue
queu
carr
carri
##rt 
##ort 
shor
##hort 
short
##u.
##fu.
ato
##cfu.
atom
##icfu.
atomi
ki
kil
kill
##lling
killi
##ta.
##ata.
##data.
lived
ce
cen
cent
##enter
cente
##w 
##ew 
##mpt
##empt
atte
##tempt
attem
##ely
lon
##nely
lone
##onely
lonel
##ain
##hain
chai
mer
##rial
merc
##urial
mercu
##ors
##vors
##avors
##air
pai
##ml
##tml
htm
unit
##nited
unite
unf
##fair
unfa
##nfair
unfai
len
##ient
leni
##nient
lenie
anc
##stry
ance
##estry
ances
raf
##tent
##stent
persi
##ud
##oud
Clo
##loud
Clou
##sit
##isit
grow
growi
##pace
##space
works
##cer
##ucer
##ducer
##acked
track
##ken
##oken
##o>
##io>
<en
##dio>
<end
##udio>
<end_
##ny
##eny
den
sch
sche
sched
seq
sequ
seque
##ton
@Si
##eton
@Sin
##leton
@Sing
med
medi
##dical
medic
recu
##rsive
recur
##MD
PH
##PMD
PHP
##HPMD
PHPM
##CS
##PCS
##HPCS
PHPC
###ict
##mit
lim
##imit
limi
fuz
fuzz
##zzing
fuzzi
##ured
stru
##tured
struc
##ian
##dian
##edian
Ve
Ver
##rcel
Verc
##ercel
Verce
atto
attop
Ru
##ust
Rus
perf
##rform
perfo
##utor
##cutor
<b
<bo
<bod
<body
</st
</sty
##l 
##al 
##nal 
exte
##rnal 
exter
##pi
@P
##Api
@Pu
##dApi
@Pub
##edApi
@Publ
##act 
##ract 
##nt 
ji
##pack
jitp
##tpack
jitpa
##ix
##dix
##ndix
appe
##endix
appen
##nd 
sus
##end 
susp
##pend 
suspe
##ill
##nting
reas
reaso
Az
##ure
Azu
##zure
Azur
##hed
##shed
##ished
disti
tig
##iger
tige
fol
##lder
fold
##older
folde
##aying
playi
ss
sst
sstr
sstre
##dient
gradi
##ole
rol
###ll
eq
equ
equa
equat
##ac
hm
##mac
hma
##gy
##egy
##tegy
reso
##ategy
resol
tabl
##rom
fro
##uing
##nuing
wi
##ith
wit
##oint
endp
##point
endpo
aft
##fter
afte
##ler.
##iler.
##s.
##gs.
##ngs.
##ings.
addi
addit
##OR
CB
##BOR
CBO
##do
##ndo
##mset
mems
##emset
memse
##ine
##mine
##rmine
pros
prosp
inh
inhe
##tance
inher
##lt.
hil
##ilt.
hilt
###ify
##if
modu
modul
##let
##blet
##ablet
##ime
##time
##ntime
##ext
nex
##ynn
##lynn
Flyn
walki
##utex
mute
Am
Amp
Ampl
##plify
Ampli
##fix
##efix
##refix
prefi
##usion
##cise
##ecise
preci
##im
##rim
Ab
##bly
Abl
##a 
##ta 
##ata 
pay
payl
##yload
paylo
patt
##ttern
patte
##ml>
##tml>
</ht
##html>
</htm
am
amb
ambi
##tious
ambit
##dh
##cdh
ecd
unb
unbo
##boxed
unbox
##ivity
##tack
stac
##rcial
comme
###ive
##esion
cohes
##iant
##riant
invar
##gex
##egex
rege
##uine
genu
##nuine
genui
##eing
seei
##eeing
seein
##uld
##ould
coul
jitt
jitte
##uet
##quet
Parq
##rquet
Parqu
kn
kno
knowi
conse
##ca
##lica
repl
##plica
repli
##erial
eph
ephe
##meral
ephem
##out
lay
##yout
layo
##ayout
layou
sen
sens
sensi
##oc
##soc
##ssoc
nona
##assoc
nonas
##xact
exac
###ment
##men
Te
Tea
##City
Team
##mCity
TeamC
##aton
##maton
autom
##RS
CQ
##QRS
CQR
##ear
##lear
##ws
@T
##ows
@Th
##rows
@Thr
##hrows
@Thro
hu
hun
##iner
Devc
##ainer
Devco
##nto
elec
##ctric
elect
##ah
##dah
##ldah
##ildah
##ib
###ible
##ibl
##hile
bc
##ypt
bcr
##rypt
bcry
##crypt
bcryp
##eful
care
##reful
caref
##ien
ali
##lien
alie
clie
##lient
clien
##fo
##nfo
gon
vol
vola
##atile
volat
<bu
##tton
<but
##utton
<butt
Pro
##roto
Prot
ori
orie
orien
##eout
##meout
timeo
##fect
affe
##ffect
affec
##eo
Sk
##peo
Sko
##opeo
Skop
##kopeo
Skope
##ha
##cha
##acha
chac
##hacha
chach
##nc
##ync
syn
##va
##ava
Run
Runn
Runne
@H
##App
@Hi
##dApp
@Hil
##idApp
@Hilt
seria
##dal
##odal
moda
fed
fede
##deral
feder
##ccs
scc
##ening
openi
##dth
##adth
##eadth
bread
##off
cof
<t
##td>
<td
##tled
##ttled
settl
##oit
##loit
##ploit
expo
##xport
expor
##K]
[U
##NK]
[UN
##UNK]
[UNK
cal
##ulus
calc
##culus
calcu
##ach
##each
<ht
##html
<htm
##gue
##rgue
argu
tie
##loc
##lloc
mall
##alloc
mallo
##ead
aea
##S]
[C
##LS]
[CL
##CLS]
[CLS
##bol
##mbol
symb
##ymbol
symbo
##eta
bet
###lt
Pros
Prose
###ial
##ia
um
uma
##mask
umas
mak
maki
##aking
makin
##koff
##ckoff
backo
##alar
supe
##calar
super
##mar
##mmar
gram
##ammar
gramm
##stor
##estor
##port 
aca
##emic
acad
##demic
acade
##nch
bra
##anch
bran
##ranch
branc
conn
conne
ded
dedu
deduc
pes
pess
pessi
##nite
fini
##inite
finit
unt
untr
##rored
untro
##tine
coro
##utine
corou
##fic
##ific
##cific
##cious
suspi
##end
##tend
fron
##ntend
front
##lve
##olve
##volve
##imer
##la
Im
##ala
Imp
##pala
Impa
##mpala
Impal
##lake
blak
##kest
##akest
weake
##ota
quo
##uota
quot
##na
Ki
##ana
Kib
##bana
Kiba
##ibana
Kiban
##Cop
Rub
##oCop
Rubo
##boCop
RuboC
Lo
Loc
Loca
##Stack
Local
obt
##tain
obta
##btain
obtai
ou
##tput
outp
##utput
outpu
bor
bord
##order
borde
##lup
##llup
roll
##ollup
rollu
bytes
stay
stayi
bag
##gage
bagg
##ggage
bagga
buy
buyi
##uying
buyin
ho
hop
sco
scop
##rg
##erg
##berg
##eberg
Codeb
pot
pote
poten
opp
##site
oppo
##osite
oppos
obs
obso
##olete
obsol
prer
prere
##is
##his
thi
##cate
##icate
usl
usle
uslee
##urd
##surd
absu
##bsurd
absur
chu
##hunk
chun
Sno
Snow
##flake
Snowf
##v4
##pv4
ipv
##tfix
##stfix
postf
hos
host
##stile
hosti
Clic
##House
Click
##ade
dow
##rade
##grade
downg
Vec
Vect
Vecto
##elay
dela
##ues
##lues
##alues
##mming
progr
###vv
opa
##city
opac
##acity
opaci
cata
catam
fee
feel
##eling
feeli
##v>
##iv>
</d
##div>
</di
##/div>
</div
prep
##epare
prepa
datab
###ancy
##anc
hap
happ
happe
##ur
yo
##our
##hart
swe
##weep
swee
##un 
tu
tup
##uple
tupl
act
##ual 
actu
##tual 
actua
wha
##nker
##inker
linke
Th
##ift
Thr
##rift
Thri
##hrift
Thrif
##lfd
sig
##alfd
sign
##nalfd
signa
mete
prin
print
Le
Lea
##oute
rout
##y{
##ry{
##iest
##liest
earli
##ging
##aging
capi
capit
##bar
##lbar
tool
##olbar
toolb
commu
##lace
##place
repla
@A
@An
@And
##Point
@Andr
concl
summ
##mmary
summa
##rive
Pus
##sher
Push
##usher
Pushe
##dard
stan
##ndard
stand
##netic
genet
###dom
mai
##ntain
maint
cong
##stion
conge
wer
relo
##nial
##onial
colon
##fetch
##rnal
##ernal
las
##dler
##ndler
handl
##zed
##ized
##nized
synch
##ea>
##rea>
</te
##area>
</tex
edu
educ
educa
##h(
##ch(
##tch(
##itch(
pub
##blic
publ
##ublic
publi
##tency
consi
##da
##bda
##mbda
##ambda
aud
##udio
audi
##ktop
desk
##sktop
deskt
beh
##hind
behi
##ehind
behin
spa
spac
spaci
##icy
##licy
##olicy
polic
thin
##nking
fall
falli
##any
##ilar
simi
##milar
simil
Bi
Big
##uery
BigQ
##Query
BigQu
dom
dome
##estic
domes
###ise
##oking
looki
###less
ka
##pt 
kap
##apt 
##isher
##rmal
##ormal
forma
fis
##scal
fisc
##iscal
fisca
##aim
##laim
clai
war
##rning
warni
##ti
###tion
##tio
##sity
univ
##rsity
unive
##og
Da
##dog
Dat
##adog
##tadog
Datad
ef
eff
effe
effec
##hDB
Coc
##chDB
Cock
##achDB
Cockr
##ram
##gram
##ogram
abl
##gout
logo
##ogout
logou
spen
##nding
spend
##bute
##ibute
###tt
##k>
##nk>
<un
##unk>
<unk
###zz
##lit
spl
##plit
spli
##ait
##rait
##rict
##trict
call
callo
ur
##ban
urb
##rban
urba
lab
labe
cano
canon
##ks 
##cks 
##ecks 
lintC
hol
hold
holdi
##now
##rk.
ben
##ark.
benc
##mark.
bench
###mm
##ord
##cord
##ecord
recor
##rch
##arch
##earch
OpenS
spi
##tual
spir
##itual
spiri
fra
frag
fragm
##ciple
princ
fig
##gure
figu
##igure
figur
No
Nor
Nort
##flank
North
##mo
##emo
dem
ri
##emd
rip
##pemd
ripe
##ipemd
ripem
##oo
Ba
##boo
Bam
##mboo
Bamb
##amboo
Bambo
##ge>
##age>
##mage>
vali
##rap
##trap
boot
##strap
boots
fea
##ture
feat
##ature
featu
##play
##splay
displ
##old
##hold
thre
##shold
thres
##erent
@Pr
@Pre
##eview
@Prev
##ady
ste
##eady
stea
##teady
stead
bec
beco
becom
##ogy
##logy
topo
##ology
topol
</he
</hea
##sert
inse
##nsert
inser
acce
acces
cri
crit
criti
##oy
Do
##loy
Dok
##ploy
Dokp
##kploy
Dokpl
impo
impos
##nous
##onous
##deo
vid
##ideo
vide
inl
inli
inlin
sl
sle
slee
My
MyS
##ySQL
MySQ
##t>
##ct>
##ect>
</se
##lect>
</sel
Tr
##ivy
Tri
##rivy
Triv
##tale
stal
##se<
##ise<
Prom
##mise<
Promi
lov
lovi
##oving
lovin
trad
tradi
proj
##oject
proje
##ce 
##ace 
##face 
vir
virt
##rtual
virtu
ren
##name
rena
##ename
renam
wei
weig
weigh
dea
bee
hug
polym
##ngest
###ed
fut
futu
##uture
futur
##ray
arr
##rray
arra
##lare
##clare
##uting
routi
##cting
##gal
leg
##egal
lega
bina
binar
poi
poin
expen
allo
##ocate
alloc
###ate
shu
shun
shunt
##hern
sout
##thern
south
##ber
fib
##iber
fibe
##rem
##orem
theo
##eorem
theor
##gify
##ngify
strin
kin
##ash
Log
##tash
Logs
##stash
Logst
wou
woul
##onse
##ponse
##fact
arti
##ifact
artif
##row
##hrow
thro
ni
nig
##htly
nigh
##ghtly
night
tak
##eport
repor
###st
##ro
Av
##vro
Avr
##ks
##cks
##acks
##packs
Fi
Fir
Fire
##ebase
Fireb
##mp
##omp
##comp
secc
##ccomp
secco
##ed 
##led 
##aled 
##etion
doc
docu
##ument
docum
wan
impr
##prove
impro
Py
Pyr
Pyri
Pyrig
gc
gco
##ON
JS
##SON
JSO
rei
##ied 
reif
##fied 
reifi
##kend
##ckend
backe
##ML
YA
##AML
YAM
##vel
##evel
leve
##line
offl
##fline
offli
##nic
mon
##onic
mono
##tonic
monot
##mg
<i
##img
<im
###opt
cro
cros
cross
DevS
##Space
DevSp
spea
speak
##un
##gun
Ray
##ygun
Rayg
##aygun
Raygu
##uling
##cult
##icult
diffi
cer
cert
certi
scan
scann
##l<
##al<
Opt
##nal<
Opti
##onal<
Optio
##orce
forc
##sa
##lsa
sal
##alsa
sals
##ome
som
red
redu
##educe
reduc
<te
<tex
<text
###cc
##rking
worki
##cide
deci
##ecide
decid
##pt>
##ipt>
</sc
##ript>
</scr
##56
##256
##a256
sha2
##ha256
sha25
sur
##lti
##ulti
bis
##ison
biso
Sta
Stat
State
pen
pend
pendi
##solve
leav
leavi
##side
outs
##tside
outsi
wri
writ
sam
samp
sampl
##cro
mac
##acro
macr
##eable
typea
##o.
##to.
moc
##ito.
mock
##kito.
mocki
primi
##ka
##fka
Kaf
##afka
Kafk
##east
leas
cut
cutt
cutti
##efer
apo
apom
apomo
##dme
##adme
##eadme
readm
Ga
Gat
Gate
Gatek
Tek
##kton
Tekt
##ekton
Tekto
##e;
##ue;
##nue;
##inue;
Br
Bra
##eman
Brak
##keman
Brake
##eus
##heus
##theus
Prome
chec
check
nu
nuc
nucl
##clear
nucle
lift
lifte
###ance
##arry
##eQL
##deQL
##odeQL
CodeQ
##atio
TO
##OML
TOM
stre
strea
pi
##ipe
pip
##uch
tou
##ouch
touc
unau
##rized
unaut
##xin
mix
##ixin
mixi
##DT
GA
##ADT
GAD
rej
reje
rejec
tur
turn
turni
##a<
Li
##ta<
Liv
##ata<
Live
##Data<
LiveD
ye
yea
pow
##rful
powe
##erful
power
dip
##atic
dipl
##matic
diplo
##dle
##ddle
##iddle
##ypy
Myp
##gs
##ogs
Gog
##af
##eaf
whit
white
##nct
##inct
##tinct
##lm
He
##elm
Hel
##ik
##vik
dal
##lvik
dalv
##alvik
dalvi
kq
kqu
kque
##queue
kqueu
##lma
bul
##ulma
bulm
##hine
mach
##chine
machi
##etent
tog
##ggle
togg
##oggle
toggl
ric
unc
unco
uncom
###ite
depl
##yment
deplo
##ero
pare
##arent
paren
<ti
<tit
<titl
grac
##ceful
grace
##gh
##igh
hig
metr
metri
##se.
##ose.
##pose.
##bor
nei
##hbor
neig
##ghbor
neigh
##ted 
##cted 
##xtend
exten
##tute
##itute
##ic 
##lic 
##blic 
logi
##gical
logic
usef
##seful
usefu
conta
##lly
##ally
##nally
##otype
##nual
manu
##anual
manua
##read
##hread
threa
##force
Si
##Cov
Sim
##eCov
Simp
##leCov
Simpl
pul
prob
proba
##its
##aits
##raits
##ek
##eek
Ree
sat
sati
satis
##tible
offi
##icial
offic
clo
##lose
clos
Du
##kDB
Duc
##ckDB
Duck
##uckDB
DuckD
wat
watc
watch
corr
corre
##ssert
metam
Ska
##fold
Skaf
##ffold
Skaff
##ded
emb
##dded
embe
##edded
embed
desp
despe
insp
##spect
inspe
##oft
sof
##oid
##rty
##erty
##perty
prope
iso
isol
isola
##ey
##vey
Kin
##nvey
Kinv
##invey
Kinve
sid
##ebar
side
##debar
sideb
unp
unpr
unpre
fou
foun
acti
actio
ev
##tfd
eve
##ntfd
##entfd
pari
##arity
parit
sno
snoo
##oping
snoop
ES
ESL
##Lint
ESLi
##SLint
ESLin
exper
libr
##brary
libra
activ
desc
##iptor
descr
##ower
foll
##lower
follo
##rtant
impor
hov
hove
Zi
##kin
Zip
##pkin
Zipk
##ipkin
Zipki
Me
Mes
##Pack
Mess
##ePack
Messa
##dding
addin
Je
##ins
Jen
##kins
Jenk
##nkins
Jenki
##ers
Fla
##fers
Flat
##ffers
FlatB
fai
fair
##rness
fairn
###er
##tier
Pret
##ttier
Prett
posi
posit
infe
infer
<tr
Con
##urse
Conc
##ourse
Conco
##gins
##ugins
##rame
fram
##ruct
##truct
##ail
patc
hom
home
##eless
homel
##sel
##usel
caro
##ousel
carou
##ool
##pool
whir
##lpool
whirl
##ding.
##log
Flo
##oles
##gned
##igned
signe
##ku
##kku
##okku
Dokk
beg
begi
##nning
begin
##oor
poo
##oss
##rts
##arts
##tarts
##ronic
##h>
##th>
##/th>
</th
@R
@Re
@Rep
@Repe
##Cloud
##ol>
</o
##/ol>
</ol
##ttend
atten
expon
cana
##anary
canar
brin
##nging
bring
nond
nonde
##refer
##hard
resou
ten
###ence
nota
notab
Dri
##rill
Dril
wil
##ax.
##vax.
##avax.
javax
##near
##inear
linea
Hoa
##oare
Hoar
##rg.
org
##of
##oof
##roof
proo
##vide
divi
##ivide
divid
abo
##bout
abou
##uent
Conf
##luent
Confl
cul
cult
cultu
taki
takin
##cant
##icant
signi
##kout
##ckout
LogR
##ocket
LogRo
##oved
##moved
##y.
##cy.
##ncy.
##ency.
##den
##dden
hidd
##idden
hidde
##lin
##tlin
##otlin
mv
##vcc
mvc
##id.
##oid.
##roid.
jus
##stify
justi
###ft
##mod
chm
##hmod
chmo
##In
@I
##lIn
@In
##llIn
@Ins
##allIn
@Inst
stati
##ceed
##cceed
##tride
strid
##uid
liq
##quid
liqu
##iquid
liqui
rela
##elate
relat
##elog
##gelog
##dline
deadl
##rod
###dd
##kbox
##ckbox
mov
movi
movin
##hy
##phy
cho
##aphy
chor
##raphy
chore
boi
boil
##plate
boile
sci
scie
##tific
scien
tea
Spi
Spin
##naker
Spinn
##inal 
heu
heur
heuri
adm
admi
admis
##que
##ique
uniq
##nique
uniqu
shi
##hift
shif
wro
wron
Bl
Bla
##lack
Blac
men
ment
menta
bru
##rute
brut
vf
vfp
vfpr
vfpri
ze
zer
expi
##pired
expir
##m 
##om 
##rom 
[M
##SK]
[MA
##ASK]
[MAS
##MASK]
[MASK
starv
meet
##eting
meeti
##nst
##onst
##sting
testi
Hi
Hiv
sli
##lice
slic
##nly
onl
tem
##oral
temp
##poral
tempo
alig
##nment
align
nor
norm
norma
eac
##td
##ntd
Flu
##entd
Flue
##uentd
Fluen
onli
##nline
onlin
##rving
##eSdk
##leSdk
##adio
##veal
reve
##eveal
revea
win
##ndow
wind
##indow
windo
@O
##tIn
@Op
##ptIn
@Opt
##OptIn
@OptI
##rst
##orst
wors
##ga
##aga
sag
num
##rous
nume
##erous
numer
nont
nonte
##sil
fos
##ssil
foss
##ossil
fossi
###ect
###ff
awk
##ward
awkw
##kward
awkwa
##cher
##tcher
dispa
tre
trea
##tar
gl
##bal
glo
##obal
glob
##lobal
globa
<la
<lab
##label
<labe
cloc
##ds 
##nds 
##ends 
lam
lamb
lambd
appea
dy
dyi
dyin
##back
##lback
rollb
##rix
##trix
matr
##atrix
matri
buf
buff
buffe
##pha
alp
##lpha
alph
##no
##ono
##rono
##hrono
##per.
##uper.
Doc
##cker
Dock
##ocker
Docke
##um 
enu
##num 
reli
##gious
relig
autho
gai
##ecial
##pan
<sp
##span
<spa
##des
##ides
@Pro
##vides
@Prov
hin
nomi
nomin
###yy
<m
##sk>
<ma
##ask>
<mas
##mask>
<mask
turi
##uring
turin
parc
##arcel
parce
##tOps
GitO
##itOps
GitOp
###ept
seem
##eming
seemi
##oly
###al
##sable
unpro
##dion
acco
##rdion
accor
cg
cgr
cgro
##group
cgrou
memm
##mmove
memmo
##nor
##inor
mino
###ize
##iz
##kers
##rkers
marke
vario
adde
##mes
##ames
keyf
##rames
keyfr
loa
##aded
load
##oaded
loade
##och
##poch
epoc
##oning
Bac
##4App
Back
##k4App
Back4
##tatic
###ss
##pect 
##mn
##umn
##lumn
colu
##olumn
colum
##j.
##tj.
##rtj.
##ertj.
ya
##acc
yac
##pop
lal
##rpop
##lrpop
lalrp
##nfix
infi
sem
##hore
sema
##phore
semap
##'n
Ca
##p'n
Cap
##ap'n
Cap'
##1|>
##_1|>
##n_1|>
##rver
SQLS
##erver
SQLSe
##hey
phd
##ino
##rino
Trin
##k;
##ak;
##eak;
##reak;
##bin
rob
##obin
robi
##r(
##or(
###nn
##hen
Wo
Wor
Work
Worke
##hm
##thm
##ithm
algo
##rithm
algor
##ion>
</op
##tion>
</opt
hei
heig
heigh
##irty
dirt
shari
</u
##/ul>
</ul
##vent
##dis
Red
##edis
Redi
##osed
##posed
###xt
##chy
hie
##rchy
hier
##archy
hiera
##ause
beca
##cause
becau
dyn
##amic
dyna
##namic
dynam
##tect
##otect
##ners
##iners
testc
@E
@Ex
@Exp
@Expe
##adic
spor
##radic
spora
##ault
##fault
##ener
##tener
liste
##k1
##6k1
##56k1
secp
##256k1
secp2
seg
segm
segme
<me
##meta
<met
##ar 
##har 
##ark
##park
Spar
##tail
deta
##etail
detai
##ater
##eater
ave
aver
avera
##iler
##piler
##64
##e64
##se64
##ase64
base6
##dra
Cas
##ndra
Cass
##andra
Cassa
##ag
##nag
Bug
##snag
Bugs
##gsnag
Bugsn
##de 
##ide 
##ride 
lowe
forw
##rward
forwa
##gent
##rgent
##bolic
diffe
##nded
##ended
subsc
expr
expre
##iled
##ailed
faile
nod
nonb
nonbl
nega
negat
pau
##used
paus
##aused
<h2
indu
##trial
indus
##uous
##nuous
##min
##dmin
##CD
##oCD
Arg
##goCD
##rgoCD
ArgoC
Au
Aut
##erge
Auto
##merge
Autom
inn
inno
innov
##ntic
##antic
seman
##r1
##lr1
##alr1
###ipt
##tated
##str
##rstr
strs
##trstr
strst
ima
imag
imagi
##60
##160
##h160
##sh160
hash1
##file
Devf
##vfile
Devfi
subj
subje
rema
##ining
remai
une
unex
unexp
upd
upda
##pdate
updat
@Ta
##rget
@Tar
##arget
@Targ
##cmp
##rcmp
##trcmp
strcm
Dee
Deep
DeepS
##hly
##thly
mont
##nthly
month
tut
tuto
##orial
tutor
##tling
throt
addr
##dress
addre
##gn
##ign
##eign
fore
##reign
forei
##lone
clon
usi
usin
##ys
##eys
##tomic
##p 
ks
##sp 
merg
##lict
##flict
callb
readi
##idth
band
##width
bandw
##ook
web
##hook
webh
##bhook
webho
Reds
##shift
Redsh
##Tel
OTe
oa
oau
##auth
oaut
##lver
##olver
##nied
deni
##enied
denie
orig
##ginal
origi
##esFor
bot
##ttom
bott
##ottom
botto
##wait
Ag
##gda
Agd
teac
nul
nulla
###ful
##fu
##is.
##his.
idl
##mor
##rmor
appa
##armor
appar
PHP_
##iffer
PHP_C
lite
##erary
liter
##eate
##reate
##only
##donly
reado
##hown
chow
unu
unus
##usual
unusu
##gant
eleg
##egant
elega
##sfied
##l.
##al.
##ial.
##rial.
##eck
##neck
##eneck
bottl
indi
indir
##btree
subtr
##gher
##igher
highe
###ity
##mized
gui
##uide
guid
##ab
##Lab
##tLab
GitL
##itLab
GitLa
##p>
##/p>
</p
##nit
Wi
Wir
##Mock
Wire
##eMock
WireM
##TS
NA
##ATS
NAT
##mmit
##ommit
##rned
##erned
lou
##le 
dou
##ble 
doub
##uble 
doubl
##uff
Ruf
##awn
##pawn
spaw
hoo
offe
offer
##aint
##raint
##rding
mye
##yers
myer
##rn 
##urn 
##turn 
##bmit
subm
##ubmit
submi
##jor
maj
##ajor
majo
##rcing
##han
matc
sla
##lave
slav
eag
##ager
eage
sayi
sayin
In
##xDB
Inf
##uxDB
Infl
##luxDB
Influ
##plex
##mplex
##as 
##ias 
##lias 
##ux
##lux
##tep
##PC
gR
##RPC
gRP
##ctual
schem
lear
learn
##/td>
</td
coo
coop
coope
sit
sitt
sitti
refl
refle
##dex
##ndex
##text
##ntext
mig
migr
migra
trip
##riple
tripl
##uf
##buf
##obuf
##tobuf
##n(
##on(
##ion(
##tion(
##ho
###hood
##hoo
<ta
<tab
<tabl
ther
scry
scryp
##so.
esp
##sso.
espr
##esso.
espre
##hink
ut
uti
util
utili
##ident
uns
##rted
unsu
##orted
unsup
CapR
##Rover
CapRo
##ets
##Sets
##eSets
##ax
##tax
##ntax
synt
##yntax
synta
##eline
pipel
peo
##ople
peop
##eople
peopl
rur
rura
##head
bulk
##khead
bulkh
io
io_
io_u
io_ur
obse
##vable
obser
##uto
##lass
eng
##gine
engi
##ngine
engin
##ell
wel
Ph
Pha
Phab
##cator
Phabr
arc
arch
archi
##vbar
navb
##avbar
navba
##ven
mav
##aven
mave
timi
##iming
timin
asym
asymm
fen
fenc
##rsor
curs
##ursor
curso
##mat
##rmat
##ormat
por
##iod
##riod
peri
##eriod
perio
Dem
Demo
##ratic
Democ
##eze
##eeze
##reeze
freez
##ntent
##thy
##lthy
heal
##althy
healt
ant
anti
##pated
antic
<p
<pa
##pad>
<pad
##yle
##tyle
sop
soph
sophi
rar
tot
##otal
tota
excl
##usive
exclu
##m.
##om.
##mise
prom
##omise
promi
help
##lping
helpi
inne
##rflow
overf
##eme
##heme
indep
wid
widg
##idget
widge
Qo
Qov
Qove
##overy
Qover
###xx
chem
##mical
chemi
edi
edit
edito
stagi
Ac
Act
Acti
Actio
@C
@Co
@Com
@Comp
wai
wait
##iting
waiti
##tral
##ntral
centr
Ea
##ley
Ear
##rley
Earl
##arley
Earle
submo
##p<
##ap<
Map
Far
##gate
Farg
##rgate
Farga
forb
forbi
cop
##eive
##ceive
recei
flo
##cat
##rcat
##trcat
strca
##scent
desce
east
easte
##rall
##erall
overa
##sync
##D]
[P
##AD]
[PA
##PAD]
[PAD
###jj
###ist
mil
##tary
mili
##itary
milit
##uest
##quest
reque
##oader
arri
##rrive
arriv
##ie
##kie
##okie
cook
##ookie
cooki
dai
##aily
dail
##ecked
##ilder
##ong 
##c.
##ic.
##ric.
robo
##tric.
robol
@B
@Bi
##inds
@Bin
##Binds
@Bind
fp
fpr
fpri
fprin
perm
permi
indic
##joy
enj
##njoy
enjo
##1>
##h1>
<h1
##cient
suffi
writi
sock
socke
##rency
<lin
##ccept
accep
phi
phil
##hical
philo
roo
##oom.
room
fir
##irst
firs
##ogin
bei
bein
dee
argum
##atar
avat
##vatar
avata
##mbly
##embly
assem
##Only
##eOnly
##tries
entri
tun
tunn
tunne
propa
##oach
##roach
##ncat
##oncat
conca
Ful
Full
##Story
FullS
##tall
##stall
##ilt
Til
desi
desir
##nel
##nnel
##unnel
##ly{
##lly{
##ally{
##mage
Ne
New
##elic
NewR
##Relic
NewRe
@D
@De
@Dep
@Depr
avo
##void
avoi
##lon
eps
##ilon
epsi
##silon
epsil
scala
##alr
##lect
##flect
yi
yie
yiel
##sign
##ssign
assig
##nect
Conn
##nnect
Conne
##hput
##ghput
throu
##um
##sum
##ksum
##cksum
##ister
regis
##nsion
##udes
##ludes
##roid
##droid
##vox
##nvox
Conv
##onvox
Convo
##ecov
##decov
Codec
CR
##RDT
CRD
##bos>
<bos
goi
goin
Ha
Har
Harn
Harne
##fly
Hov
##rfly
Hove
##erfly
Hover
##ising
pan
##anel
pane
##uence
stas
##df
hk
##kdf
hkd
##nf
##anf
ssc
##canf
ssca
##scanf
sscan
##rmer
##ormer
forme
laten
payi
payin
du
dur
dura
durat
##tity
enti
##ntity
entit
##igs
##figs
##nfigs
##axed
##laxed
relax
##mport
##aar
baz
##zaar
baza
##azaar
bazaa
##dx.
##idx.
##oidx.
quar
##rtile
quart
##tps
##ttps
##dia
##edia
Di
Dia
Diam
Diamo
##/li>
</li
##mbuf
##ambuf
##vis
Tra
##avis
Trav
##ravis
Travi
##qual
Sen
##ntry
Sent
##entry
Sentr
<in
<inp
##input
<inpu
upg
upgr
upgra
##dlock
Scy
##laDB
Scyl
##llaDB
Scyll
##pic
##opic
topi
##ibe
##ribe
##cribe
##xfix
mixf
##ixfix
mixfi
fas
fasc
fasci
inj
inje
##nject
injec
##el.
##del.
##odel.
viewm
##Co
Ja
##oCo
JaC
##CoCo
JaCo
##aCoCo
JaCoC
##er 
##ner 
##nner 
##ocess
modi
modif
##sful
##ssful
##se 
##ase 
##ged
##aged
unst
##taged
unsta
##ura
Has
##sura
Hasu
##asura
Hasur
glos
gloss
##yer
##ayer
laye
##ucent
snp
snpr
snpri
##mcmp
##emcmp
memcm
##mark
##hmark
BS
BSO
##num
coa
coal
coalg
visu
##isual
visua
##inent
gat
##eway
gate
##teway
gatew
infor
##ret
##cret
secr
##ecret
secre
bea
##iful
beau
##tiful
beaut
##ow 
##row 
##hrow 
findi
ios
iost
iostr
At
##ena
Ath
##hena
Athe
##thena
Athen
##bby
Stu
##ubby
Stub
##tubby
Stubb
##orts
##ports
##otion
promo
Poc
##Base
Pock
##tBase
Pocke
##v6
##pv6
hum
##uman
huma
deal
deall
##elect
##Code
##nCode
consc
names
ine
inev
inevi
##ev
##dev
##ddev
stdd
##tddev
stdde
##flare
unac
unacc
inco
incom
slid
##lider
slide
##t<
##et<
Set
##reme
supr
##preme
supre
Gar
##rden
Gard
##arden
Garde
##rust
trus
##vic
##ivic
quer
##Hub
##tHub
GitH
##itHub
GitHu
Ps
##alm
Psa
##salm
Psal
cub
##hash
cube
##ehash
cubeh
pict
##cture
pictu
##kew
ske
Jae
##eger
Jaeg
##aeger
Jaege
webp
##bpack
webpa
<h3
##acket
packe
rot
rota
##otate
rotat
Kus
##mize
Kust
##omize
Kusto
serve
<sc
<scr
<scri
##P]
[S
##EP]
[SE
##SEP]
[SEP
Reg
Regi
##istry
Regis
heade
##cho
##acho
##mver
semv
##emver
semve
###en
##eject
##ndom
##andom
runni
##dural
##tone
##otone
nort
north
##uma
##sient
##ocal
javas
##an 
##ean 
##lean 
##colic
conco
Ky
##rno
Kyv
##erno
Kyve
##verno
Kyver
<ol
##eft
lef
##mous
famo
##amous
famou
##eset
rese
empi
empir
dia
diag
##agram
diagr
ah
ahe
ahea
##hir
Men
##nhir
Menh
##enhir
Menhi
trav
trave
###qq
##lur
blu
refi
refin
##ium
Deb
##zium
Debe
##ezium
Debez
##xer
##ixer
PHP-
##Fixer
PHP-C
send
sendi
##--
##!--
<!-
Net
Netl
##tlify
Netli
##vate
##ivate
##/h1>
</h1
hyl
hylo
hylom
tit
##itle
titl
##lle
Isa
##elle
Isab
##belle
Isabe
##elled
###est
##nux
##inux
seli
##linux
selin
poss
possi
##fana
Graf
##afana
Grafa
##alog
dial
##ialog
dialo
##tic 
##atic 
##gth
##ngth
leng
##ength
lengt
##tMQ
Rab
##itMQ
Rabb
##bitMQ
Rabbi
futum
##erce
fier
##ierce
fierc
##kage
##ckage
##st<
Lis
##ist<
List
##ahead
looka
##iven
##riven
##alt
##ob
##lob
##lain
##plain
expla
mass
massi
lc
lco
###bb
tel
tell
telli
##ph
##aph
##raph
grap
##ung
##oung
youn
##ude
##lude
##clude
Cob
##tura
Cobe
##rtura
Cober
awar
##eness
aware
##sar
Pul
##lsar
Puls
##ulsar
Pulsa
##work
##ework
lett
##etter
lette
##inter
###able
##abl
###ism
##urs
anam
anamo
@Inj
@Inje
templ
##he
##che
##ache
##ork.
devi
##evice
devic
Gol
##lint
Goli
##olint
Golin
##ost
mos
##uable
valua
##story
##xy
##oxy
##roxy
prox
rig
righ
##rtain
certa
Moc
Mock
MockS
ques
quest
##idge
brid
##ridge
bridg
curr
curre
##hree
@JvmS
types
##edo
ps
psy
psyc
psych
##tan
##Stan
PHPS
##PStan
PHPSt
loadi
##mber
numb
##umber
numbe
widt
fem
##male
fema
##emale
femal
##st 
##nst 
##onst 
##unded
##es.
##nes.
##ines.
lot
##tery
lott
##ttery
lotte
@Ret
@Rete
##atch(
rin
rest
##start
resta
reb
reba
rebas
editi
pep
pepp
##epper
peppe
##sts
##ests
##uests
##eloc
Bit
Bitb
Bitbu
##tea
##itea
Gite
Dy
Dyn
##moDB
Dyna
##amoDB
Dynam
cra
##razy
craz
cei
ceil
ceili
##adge
badg
spat
##atial
spati
##atter
##tire
##ntire
entir
###ing
##m>
##rm>
</f
##orm>
</fo
##form>
</for
rang
##lag
##riber
##wall
fire
##ewall
firew
sear
searc
letti
simp
##imple
simpl
##ics
##mics
##amics
sin
##ngle
sing
##ingle
singl
##ecks
##hecks
###pp
##tlr
##ntlr
antl
##exer
lexe
##ollow
##2|>
##_2|>
##n_2|>
##ush
pus
scar
##cared
scare
##oku
Her
##roku
Hero
##eroku
Herok
##zable
tar
##tSdk
targ
##etSdk
targe
reall
##cus
foc
##ocus
focu
yar
##arn
spar
##parse
spars
##har
Eas
Easy
##panel
Easyp
bindi
##kk.
##ckk.
##ockk.
mockk
react
lax
##xity
laxi
##axity
laxit
xs
xsa
xsal
##salsa
xsals
##hor
##chor
anch
##nchor
ancho
Ro
Rol
Roll
##llbar
Rollb
tagl
##gless
tagle
##erd
##nerd
##inerd
tele
telem
ris
##ncing
convi
vit
##dual
##idual
indiv
##ncial
finan
##pine
spin
##loor
floo
##lsh
##elsh
wels
padd
paddi
gia
gian
dele
##elete
delet
##uter
oute
##rat
##krat
##ckrat
packr
###ic
mini
##nimal
minim
##day
##yday
ever
##ryday
every
Mou
##bank
Moun
##ebank
Mount
nati
nativ
##iance
newt
##wtype
newty
##dsa
##cdsa
ecds
er
err
erro
<se
<sel
<sele
agr
##gree
agre
butt
butto
##sus
##nsus
##ensus
##go
##rgo
<th
##how
##rker
##orker
worke
##fie
##ffie
##iffie
##dern
##odern
##deal
idea
pra
prag
pragm
##css
scs
##pter
##apter
##ym
##nym
##onym
syno
##nonym
synon
orga
organ
##at 
##oat 
floa
##loat 
float
phy
phys
##sical
physi
ic
##con
ico
Capt
##pture
Captu
natio
10
11
12
13
14
15
16
17
18
19
20
21
22
23
24
25
26
27
28
29
30
31
32
33
34
35
36
37
38
39
40
41
42
43
44
45
46
47
48
49
50
51
52
53
54
55
56
57
58
59
60
61
62
63
64
65
66
67
68
69
70
71
72
73
74
75
76
77
78
79
80
81
82
83
84
85
86
87
88
89
90
91
92
93
94
95
96
97
98
99
100
101
102
103
104
105
106
107
108
109
110
111
112
113
114
115
116
117
118
119
120
121
122
123
124
125
126
127
128
129
130
131
132
133
134
135
136
137
138
139
140
141
142
143
144
145
146
147
148
149
150
151
152
153
154
155
156
157
158
159
160
161
162
163
164
165
166
167
168
169
170
171
172
173
174
175
176
177
178
179
180
181
182
183
184
185
186
187
188
189
190
191
192
193
194
195
196
197
198
199
200
201
202
203
204
205
206
207
208
209
210
211
212
213
214
215
216
217
218
219
220
221
222
223
224
225
226
227
228
229
230
231
232
233
234
235
236
237
238
239
240
241
242
243
244
245
246
247
248
249
250
251
252
253
254
255
256
257
258
259
260
261
262
263
264
265
266
267
268
269
270
271
272
273
274
275
276
277
278
279
280
281
282
283
284
285
286
287
288
289
290
291
292
293
294
295
296
297
298
299
300
301
302
303
304
305
306
307
308
309
310
311
312
313
314
315
316
317
318
319
320
321
322
323
324
325
326
327
328
329
330
331
332
333
334
335
336
337
338
339
340
341
342
343
344
345
346
347
348
349
350
351
352
353
354
355
356
357
358
359
360
361
362
363
364
365
366
367
368
369
370
371
372
373
374
375
376
377
378
379
380
381
382
383
384
385
386
387
388
389
390
391
392
393
394
395
396
397
398
399
400
401
402
403
404
405
406
407
408
409
410
411
412
413
414
415
416
417
418
419
420
421
422
423
424
425
426
427
428
429
430
431
432
433
434
435
436
437
438
439
440
441
442
443
444
445
446
447
448
449
450
451
452
453
454
455
456
457
458
459
460
461
462
463
464
465
466
467
468
469
470
